000000000000000000000000000000
000000000000000000000000000000
000000000000000000000000000000
000000000000000000000000000000
000000000000000000000000000000
000000010000000000000000000000
000011111001000000000000000000
000111111111100100000000000000
000111111111111111000000000000
000111110011111111100000000000
000011100000001111111000000000
000111100000000000111100000000
000111100000000000011110000000
000111100000000000001110000000
000011100000000000000111000000
000111100000000000000011100000
000111000000000000000111100000
000111100000000000000111100000
000111100100000000000111100000
000111111110010000000111000000
000111111111111101111111000000
000011101111111111111100000000
000111100000111111111000000000
000111000000000011011110000000
000111000000000000001110000000
000011100000000000000111000000
000111100000000000000111100000
000111000000000000000011100000
000111000000000000000011100000
000111100000000000000011100000
000111100000000000000011110000
000111111000000000000011110000
000111111111111100001111000000
000111111111111111111110000000
000100000010111111111110000000
000000000000000000000000000000
000000000000000000000000000000
000000000000000000000000000000
000000000000000000000000000000
000000000000000000000000000000
