000000000000000000000000000000
000000000000000000000000000000
000000000000000000000000000000
000000000000000000000000000000
000001110111111000000000000000
000001111111111111100000000000
000011111111111111100000000000
000011111001110111111000000000
000011100000000000011100000000
000011110000000000011110000000
000011110000000000001110000000
000011100000000000000110000000
000011100000000000001111000000
000011110000000000000111000000
000011110000000000000111000000
000011100000000000000111000000
000011100000000000001110000000
000011111100000000011110000000
000011111111111110111110000000
000011111111111111111100000000
000011110111011111111000000000
000001110000000001111000000000
000011100000000000001100000000
000011100000000000000110000000
000011110000000000000110000000
000001110000000000000111000000
000011100000000000000011000000
000011100000000000000011100000
000011110000000000000111000000
000011110000000000000111000000
000011110000000000000111100000
000011111111011100000111000000
000011111111111111111110000000
000011101111111111111100000000
000000000001111111111100000000
000000000000000000000000000000
000000000000000000000000000000
000000000000000000000000000000
000000000000000000000000000000
000000000000000000000000000000
