000000000000000000000000000000
000000000000000000000000000000
000000000000000000000000000000
000000000000000000000000000000
000001000000000000000000000000
000000111110000000000000000000
000001111111000000000000000000
000001111111111100000000000000
000001111011111111000000000000
000011110000111111111000000000
000011111000000001111110000000
000001111000000000111110000000
000001110000000000001110000000
000011110000000000000111000000
000011110000000000000011000000
000011100000000000000001100000
000011110000000000000011110000
000011110000000000000011110000
000011111111000000000011110000
000011111111110000000111100000
000011101111111010001111100000
000111100100111111111111100000
000011100000001111111100000000
000011100000000000111100000000
000111100000000000001110000000
000111100000000000001110000000
000111000000000000000111100000
000111000000000000000011100000
000111100000000000000011100000
000111100000000000000011110000
000111111000000000000011100000
000111111111100000000011100000
000010111111111000000011110000
000000000011111111111111000000
000000000000001111111110000000
000000000000000000000000000000
000000000000000000000000000000
000000000000000000000000000000
000000000000000000000000000000
000000000000000000000000000000
