000000000000000000000000000000
000000000000000000000000000000
000000000000000000000000000000
000000000000000000000000000000
000000000000001111110000000000
000000011001111111111000000000
000011111111111111111110000000
000001111111111000111100000000
000011111110000000001100000000
000011100000000000000111000000
000011100000000000001110000000
000001110000000000001110000000
000011110000000000001110000000
000011100000000000000110000000
000011100000000000001110000000
000011110000000000011100000000
000011110000000000111000000000
000011100000000011111000000000
000011101000111111111100000000
000001111111111111111100000000
000011111111111101011111000000
000011111111100000000111000000
000011111000000000000111000000
000001110000000000000111000000
000011110000000000000011100000
000011100000000000000011100000
000011110000000000000111000000
000001110000000000000111000000
000011100000000000000111000000
000011100000000000000110000000
000011110000000000011100000000
000011110000001100111100000000
000011111011111111111100000000
000011111111111111100000000000
000001111111110111000000000000
000000000000000000000000000000
000000000000000000000000000000
000000000000000000000000000000
000000000000000000000000000000
000000000000000000000000000000
