000000000000000000000000000000
000000000000000000000000000000
000000000000000000000000000000
000000000000000000000000000000
000000000000000101000000000000
000000000000001111111000000000
000000000001111111111000000000
000000001111111100011100000000
000000111111100000001111000000
000111111010000000001111000000
000111100000000000001110000000
000111000000000000001110000000
000110000000000000001110000000
000111000000000000011110000000
000111000000000000011100000000
000111000000000000111100000000
000111100000000001111100000000
000111100000000111111110000000
000111100000011111110111100000
000011100001111110000111110000
000111111011111100000001111000
000111111111000000000001110000
000011111110000000000001110000
000011110000000000000001111000
000011110000000000000001110000
000011110000000000000001110000
000001110000000000000001110000
000001111000000000000011100000
000001111000000000010011100000
000000111000000001111111000000
000000111000000111111110000000
000000111100011111111100000000
000001111001111111000000000000
000000111111110000000000000000
000000111111100000000000000000
000000000000000000000000000000
000000000000000000000000000000
000000000000000000000000000000
000000000000000000000000000000
000000000000000000000000000000
