000000000000000000000000000000
000000000000000000000000000000
000000000000000000000000000000
000000000000000000000000000000
000000111011100000000000000000
000000111111111101100000000000
000001111111111111110000000000
000001111100111111111000000000
000001110000000011011100000000
000001111000000000001110000000
000001110000000000001110000000
000001110000000000000111000000
000001110000000000000110000000
000001111000000000000111000000
000001110000000000000011100000
000001110000000000000011100000
000001110000000000000111000000
000011111110000000001110000000
000001111111111000001111000000
000001111111111111111111000000
000001111011111111111100000000
000001111000001111111100000000
000001110000000000111110000000
000001110000000000001111000000
000001111000000000000111000000
000001111000000000000111000000
000001110000000000000011100000
000001110000000000000011100000
000001111000000000000011100000
000001111000000000000011100000
000001110000000000000011100000
000001111011100000000111110000
000001111111111110000111000000
000001111111111111111111000000
000000000110111111111110000000
000000000000000000000000000000
000000000000000000000000000000
000000000000000000000000000000
000000000000000000000000000000
000000000000000000000000000000
