000000000000000000000000000000
000000000000000000000000000000
000000000000000000000000000000
000000100000000000000000000000
000000111100000000000000000000
000001111111100000000000000000
000001111111111111000000000000
000001110111111111110000000000
000001111000111111110000000000
000001110000000011111000000000
000001110000000000001110000000
000001110000000000001110000000
000001110000000000001110000000
000001110000000000000110000000
000001110000000000000111000000
000001110000000000000111000000
000001110000000000000111000000
000001110000000000000111000000
000001111110000000000111000000
000001111111111000111110000000
000011111111111111111110000000
000001110001111111111100000000
000001110000001111111100000000
000001110000000000111100000000
000011110000000000001110000000
000001110000000000000011000000
000001110000000000000011100000
000001110000000000000111100000
000011110000000000000011100000
000001110000000000000011100000
000001110000000000000111100000
000001110000000000000111000000
000011111010000000001111000000
000001111111111110001111000000
000001111111111111111100000000
000000000111111111111100000000
000000000000000000000000000000
000000000000000000000000000000
000000000000000000000000000000
000000000000000000000000000000
