000000000000000000000000000000
000000000000000000000000000000
000000000000000000000000000000
000000000000000000000000000000
000000000000000000000000000000
000000000000000001000000000000
000000000010111111100000000000
000000101111111111111000000000
000011111111111111011110000000
000011111101000000011110000000
000011110000000000001110000000
000111100000000000000111000000
000111100000000000000111100000
000011100000000000000011100000
000011100000000000000111000000
000111110000000000000110000000
000111100000000000001111000000
000011100000000000011111000000
000011100000010111111100000000
000111111101111111111100000000
000011111111111111111100000000
000011111111011101111111000000
000011110100000000000111000000
000111100000000000000111100000
000011100000000000000011100000
000011100000000000000011110000
000011110000000000000011100000
000011100000000000000011100000
000011100000000000000011110000
000011110000000000000111110000
000111110000000000000111000000
000011100011001101111110000000
000011111111111111111110000000
000011111111111111111000000000
000111111110111111010000000000
000000000000000000000000000000
000000000000000000000000000000
000000000000000000000000000000
000000000000000000000000000000
000000000000000000000000000000
