000000000000000000000000000000
000000000000000000000000000000
000000000000000000000000000000
000001110000000000000000000000
000001111111110000000000000000
000001111111111011000000000000
000011111111111111100000000000
000011110001110111110000000000
000011110000000110110000000000
000001110000000000011000000000
000011100000000000011100000000
000011100000000000001100000000
000011110000000000001100000000
000001110000000000001110000000
000011100000000000000111000000
000011100000000000000111000000
000011110000000000001110000000
000001111100000000001110000000
000011111111110000011110000000
000011111111111111111110000000
000011110111111111111000000000
000011110000011111111000000000
000011100000000001111000000000
000011100000000000011100000000
000011110000000000001100000000
000011110000000000001110000000
000011100000000000000111000000
000011100000000000000111000000
000011110000000000000111000000
000011110000000000000111000000
000011110000000000000111000000
000011110111000000001111100000
000011111111111100001110000000
000011101111111111111110000000
000000001101111111111100000000
000000000000110111111000000000
000000000000000000000000000000
000000000000000000000000000000
000000000000000000000000000000
000000000000000000000000000000
