000000000000000000000000000000
000000000000000000000000000000
000000000000000000000000000000
000000000000000000000000000000
000000000000000000000000000000
000000000000100111000000000000
000000001011111111111000000000
000010111111111111111000000000
000011111111111011011110000000
000011110100000000001111000000
000011100000000000001111000000
000111110000000000000111000000
000011100000000000000111100000
000011100000000000000011100000
000011110000000000000111000000
000111110000000000000110000000
000011100000000000001111000000
000011100000000000111111000000
000011100000011111111100000000
000111111111111111111100000000
000011111111111111111110000000
000011111101000100011111000000
000011110000000000000111000000
000111100000000000000011100000
000011100000000000000011110000
000011100000000000000011110000
000011110000000000000011100000
000011100000000000000011110000
000011100000000000000011110000
000011110000000000000111010000
000011110000000000001111000000
000011101111101111111110000000
000011111111111111111110000000
000011111111111111110000000000
000000000000000000000000000000
000000000000000000000000000000
000000000000000000000000000000
000000000000000000000000000000
000000000000000000000000000000
000000000000000000000000000000
