000000000000000000000000000000
000000000000000000000000000000
000000000000000000000000000000
000000000000000000000000000000
000000000000000000000000000000
000000000000011011100000000000
000000001110111111111000000000
000011111111111111011110000000
000011111111100000011110000000
000011111000000000001110000000
000111100000000000000111000000
000111100000000000000111100000
000111100000000000000111000000
000011100000000000000111000000
000111000000000000000110000000
000111100000000000001111000000
000111100000000000011110000000
000111100000000001111100000000
000111000111111111111100000000
000111111111111111111110000000
000011111111111101111110000000
000111111110000000000111000000
000111100000000000000111100000
000111100000000000000011100000
000011100000000000000011100000
000111110000000000000011100000
000111100000000000000011100000
000011100000000000000111110000
000011100000000000000111000000
000111110000000000000111000000
000111100000011101111110000000
000011110111111111111100000000
000011111111111111111000000000
000111111110111111010000000000
000000000000000000000000000000
000000000000000000000000000000
000000000000000000000000000000
000000000000000000000000000000
000000000000000000000000000000
000000000000000000000000000000
