000000000000000000000000000000
000000000000000000000000000000
000000000000000000000000000000
000000000000000000000000000000
000000000000000111111000000000
000000011101111111111000000000
000001111111111111111100000000
000001111111111000111110000000
000011111110000000000111000000
000011110000000000000111000000
000001110000000000001110000000
000001110000000000001111000000
000011110000000000000111000000
000011110000000000000110000000
000001110000000000001110000000
000001110000000000011110000000
000011110000000000011100000000
000011110000000011111000000000
000001110000011111111100000000
000001111111111111111110000000
000011111111111110101111000000
000001111111100000001111000000
000001111000000000000111000000
000001110000000000000011100000
000011110000000000000011100000
000001110000000000000011100000
000001110000000000000011000000
000001110000000000000011100000
000011100000000000000011000000
000001110000000000000110000000
000001110000000000011100000000
000011110000001110111100000000
000011111101111111111100000000
000001111111111111100000000000
000001111111111111100000000000
000000000000000000000000000000
000000000000000000000000000000
000000000000000000000000000000
000000000000000000000000000000
000000000000000000000000000000
