000000000000000000000000000000
000000000000000000000000000000
000000000000000000000000000000
000000000000000000000000000000
000000000000000000000000000000
000000000000011101110000000000
000000000111111111111000000000
000001111111111111011110000000
000011111111110100011110000000
000011111000000000000111000000
000011110000000000000111000000
000011110000000000000111100000
000111100000000000000011100000
000011100000000000000011100000
000011100000000000000110000000
000111110000000000001111000000
000111100000000000001111000000
000011100000000001111110000000
000011100001111111111100000000
000111111111111111111110000000
000011111111111110111111000000
000011111010000000000111100000
000011110000000000000111100000
000111110000000000000011100000
000011100000000000000001110000
000011110000000000000001110000
000011110000000000000011100000
000011110000000000000011110000
000011100000000000000011100000
000011110000000000000111100000
000011110000001101111110000000
000011110011011111111110000000
000011111111111111111100000000
000011111110111011000000000000
000000000000000000000000000000
000000000000000000000000000000
000000000000000000000000000000
000000000000000000000000000000
000000000000000000000000000000
000000000000000000000000000000
