000000000000000000000000000000
000000000000000000000000000000
000000000000000000000000000000
000000000000000000000000000000
000000000000000000000000000000
000000010000000000000000000000
000011111111111110000000000000
000011111111111111100000000000
000111111111111111111100000000
000111010001100100011110000000
000111100000000000011110000000
000011100000000000001110000000
000111100000000000001111000000
000111000000000000000111000000
000111100000000000001111000000
000011100000000000001110000000
000111100000000000001110000000
000111000000000000011110000000
000111000000000001111000000000
000011111111111111111000000000
000111111111111111111100000000
000111111111111111111111000000
000111100110010000001111100000
000011100000000000000111100000
000111000000000000000111100000
000111000000000000000011100000
000111100000000000000111110000
000011100000000000000111000000
000111000000000000000111000000
000111000000000000000111000000
000111100000000000011100000000
000011100000000101111100000000
000111111111111111111000000000
000111111111111111100000000000
000011111111110010000000000000
000000000000000000000000000000
000000000000000000000000000000
000000000000000000000000000000
000000000000000000000000000000
000000000000000000000000000000
