000000000000000000000000000000
000000000000000000000000000000
000000000000000000000000000000
000000000000000000000000000000
000000111000000000000000000000
000001111111100000000000000000
000001111111111110000000000000
000001111111111111000000000000
000001110100111111110000000000
000001110000010011111000000000
000001110000000000011100000000
000001110000000000001110000000
000001110000000000001110000000
000011110000000000000110000000
000001110000000000000111000000
000001110000000000000111000000
000001110000000000000111000000
000011100000000000000111000000
000001110000000000000110000000
000001111111001000011110000000
000011111111111111111110000000
000011111111111111111100000000
000001110001111111111100000000
000001110000001100111100000000
000011110000000000001110000000
000011100000000000000111000000
000001110000000000000011100000
000001110000000000000111100000
000011110000000000000011100000
000011100000000000000011100000
000001110000000000000111100000
000001110000000000000111000000
000011111000000000001111000000
000011111111100000001111000000
000001111111111111111100000000
000000100111111111111100000000
000000000000000000000000000000
000000000000000000000000000000
000000000000000000000000000000
000000000000000000000000000000
