000000000000000000000000000000
000000000000000000000000000000
000000000000000000000000000000
000000111111100000000000000000
000000111111111100000000000000
000001111111111111100000000000
000001111110111111110000000000
000001110000010011110000000000
000000111000000000011000000000
000001110000000000011110000000
000001110000000000001110000000
000001110000000000001110000000
000000111000000000000110000000
000001110000000000000111000000
000001110000000000000011100000
000001110000000000000111000000
000000111000000000000111000000
000001111111000000000110000000
000001111111110100011111000000
000001111111111111111110000000
000001111011111111111100000000
000001110000001111111100000000
000001110000000000111100000000
000001110000000000001100000000
000001111000000000000110000000
000001110000000000000111000000
000001110000000000000111100000
000001110000000000000011100000
000001111000000000000011100000
000001110000000000000011100000
000001111000000000000111100000
000001111111100000000111100000
000001111111111100000111000000
000000100111111111111111000000
000000000000111111111100000000
000000000000001011111100000000
000000000000000000000000000000
000000000000000000000000000000
000000000000000000000000000000
000000000000000000000000000000
