000000000000000000000000000000
000000000000000000000000000000
000000000000000000000000000000
000000000000000000000000000000
000000111111100000000000000000
000000111111111111100000000000
000001111111111111110000000000
000001111100111011111000000000
000001110000000000011100000000
000001111000000000001110000000
000001110000000000000110000000
000001110000000000000011000000
000001110000000000000110000000
000001111000000000000111000000
000001110000000000000011100000
000001110000000000000011100000
000001110000000000000111000000
000011111110000000001111000000
000001111111111011001111000000
000001111111111111111111000000
000001111011111111111100000000
000001111000001110111100000000
000001110000000000011110000000
000001110000000000000111000000
000001111000000000000111000000
000001111000000000000011000000
000001110000000000000011100000
000001110000000000000011100000
000001111000000000000011100000
000001111000000000000011100000
000001111000000000000011100000
000001111111100000001111110000
000001111111111110001111000000
000001110111111111111110000000
000000000000111111111110000000
000000000000000000000000000000
000000000000000000000000000000
000000000000000000000000000000
000000000000000000000000000000
000000000000000000000000000000
