000000000000000000000000000000
000000000000000000000000000000
000000000000000000000000000000
000000000100000000000000000000
000000001111000000000000000000
000000001111111111000000000000
000000001111111111111000000000
000000011110111111111000000000
000000011110000101111110000000
000001011110000000001110000000
000001011100000000000111000000
000001011100000000000011100000
000000111110000000000011110000
000000011100000000000011100000
000000011100000000000001100000
000000111100000000000011110000
000000111100000000000001110000
000000011100000000000001110000
000000111111100000000011110000
000000111111111101000011000000
000000111111111111011111100000
000000111100111111111110000000
000000111000000111111110000000
000000111000000000111111000000
000000111000000000001110000000
000000111000000000000110000000
000000111000000000000011000000
000001110000000000000011000000
000001110000000000000001100000
000000111000000000000001100000
000001110000000000000011100000
000001111100000000000011100000
000011111111100000000111100000
000001111111111100000111000000
000000000011111111101111000000
000000000000011111111111000000
000000000000000111111100000000
000000000000000000000000000000
000000000000000000000000000000
000000000000000000000000000000
