000000000000000000000000000000
000000000000000000000000000000
000000000000000000000000000000
000000000000000000000000000000
000000000000000000000000000000
000000001000100110100000000000
000001111111111111111000000000
000011111111111111111111000000
000011111111111011001111000000
000011101000000000000111000000
000011110000000000000111110000
000011110000000000000111100000
000011100000000000000011100000
000011100000000000000011000000
000011110000000000000111000000
000011110000000000001111000000
000011100000000000001110000000
000011100000000001111110000000
000011100010011111111110000000
000111111111111111111111000000
000011111111111110110011110000
000011111001001000000011110000
000011110000000000000011110000
000011110000000000000001110000
000011100000000000000001111000
000011100000000000000001111000
000011110000000000000011100000
000011110000000000000011100000
000011100000000000000111000000
000011110000000000011111000000
000011110000000111111100000000
000011111011111111110000000000
000011111111111111100000000000
000011111111011000000000000000
000000000000000000000000000000
000000000000000000000000000000
000000000000000000000000000000
000000000000000000000000000000
000000000000000000000000000000
000000000000000000000000000000
