000000000000000000000000000000
000000000000000000000000000000
000000000000000000000000000000
000000000000000000000000000000
000000000011001111111000000000
000000011111111111111110000000
000000011111111111111110000000
000000111111111100001111000000
000000111100000000000111100000
000000111000000000000001100000
000000111100000000000001110000
000000111100000000000011110000
000000111000000000000011110000
000000111000000000000011100000
000000111000000000000011000000
000001111000000000000011100000
000001111000000000000110000000
000000111000000001111110000000
000000111001111111111100000000
000000111111111111111110000000
000001111111111110111111000000
000001111111000000000111100000
000000111000000000000011100000
000000111000000000000011110000
000001110000000000000011100000
000001110000000000000011100000
000001110000000000000011110000
000001110000000000000011100000
000001110000000000000011000000
000001110000000000000111000000
000001110000000000111110000000
000001110000111100111100000000
000011111111111111111100000000
000011111111111111100000000000
000001111111100110100000000000
000001111101100000000000000000
000000000000000000000000000000
000000000000000000000000000000
000000000000000000000000000000
000000000000000000000000000000
