000000000000000000000000000000
000000000000000000000000000000
000000000000000000000000000000
000000000000000000000000000000
000000000000001111111100000000
000000000111111111111100000000
000000111111111111111110000000
000000111111111000011110000000
000001111000000000000111000000
000001111000000000000011100000
000000111000000000000011100000
000000111000000000000111100000
000001111000000000000111000000
000001110000000000000110000000
000001110000000000000111000000
000000111000000000000110000000
000001111000000000011100000000
000001110000000011111000000000
000001110011111111111100000000
000001111111111111111100000000
000011111111111100101111000000
000001111110001000001111000000
000001110000000000000111000000
000001110000000000000111100000
000001110000000000000111000000
000011100000000000000111100000
000011100000000000000011100000
000001110000000000000111000000
000001110000000000000110000000
000011100000000000001100000000
000011100000000000111100000000
000011100000000001111100000000
000011110001111111111000000000
000011111111111111000000000000
000011111111111110000000000000
000011111110000000000000000000
000000000000000000000000000000
000000000000000000000000000000
000000000000000000000000000000
000000000000000000000000000000
